#map = affine_map<()[s0, s1] -> (s0 * s1)>
#map1 = affine_map<()[s0, s1, s2] -> ((s0 * s1) * s2)>
#map2 = affine_map<()[s0] -> (s0 * 3 + 3)>
module attributes {torch.debug_module_name = "Conv2dWithPaddingDilationStrideModule"} {
  llvm.func @free(!llvm.ptr)
  llvm.func @malloc(i64) -> !llvm.ptr
  func.func private @refbackend_consume_func_return_mrf32(memref<*xf32>) attributes {llvm.emit_c_interface}
  llvm.mlir.global private @global_seed(0 : i64) {addr_space = 0 : i32} : i64
  llvm.mlir.global private constant @__constant_10x2x3x3xf32(dense<"0x2E4CE7BABE79013E42A646BE27A031BEC9EBB9BDC771813DE50699BB015F3F3E7D5AABBC74777F3D3EE291BD7AC53DBD029566BE0BD91FBED4FCC6BD880D0F3CE4D5BE3D2BD2103E94A023BEB234D2BDDF54AF3DF56B483EDFAF46BDA39C343EBF9C1BBD4750CC3C818B5A3ED6E65FBED9F117BE3B6A74BDDE29BCBDD388503EAE711CBE0936DEBD8D9F28BE2B0C62BE1EE40CBEC9784F3ED265D73DD5F5E93D62184B3C4F7BF7BD4A56233D115B61BEE0652EBE11DBF8BD5A48183E94830D3E4915D6BD4C570BBC225D1A3E6EF16F3E0F95BF3D6F6C023DF7D3213EE11C0EBE40E7333D86203BBE5C4827BE435DF9BDC06ADA3D5221C23D3DF80EBE25D5913DD97F043EAEB5F3BC8A72133C39B25F3DCABB153E69C0673E3DFF39BED1E6B0BD8AB6BD3D5BFA473E5008523E00F7543ECA22403DB7E151BE36A0B13CDDFE16BE85EF60BE1D72563E0F85373E31C370BEE6B3343D2FA322BD93DF1EBDB4F7DCBDDDA1B93D36F50EBED8F5B03D511DF43D3AC82C3E657EB43DB2E16EBEA4911CBE4907F13D31114A3DC7473CBEB2FA0ABEF40E633ED0A1223E2F7AD2BD55FC72BD11EB65BEB7D28ABBF4C135BE892C3ABEDAC754BC9CF4103D0FB0C5BD93370F3E60E012BE86005B3E4367253EB6884BBE314870BD8A402E3CB5DB0C3D08FA643DAA6EBD3DB851673C3888EBBDBE6AE43D028667BE1F0E0FBE75AD71BD7523EBBDF6DEA8BDBBD245BEEB5C4DBD475E4E3DB93C1DBEAD2E46BCF2C62C3E857EC6BC27A7D63B0493A6BCE862433D3577193E63A0643ECB46193E4D26653ED8A48BBC6ED158BE81D8E4BDBA57243E0345C8BAEFEEEFBDD2F438BE5DE061BE86B54BBE74D343BDE05C043E187D023E41C668BE348E163EA4DD3CBE6B1A4CBDA2BAC3BD33F539BD718E3DBD669558BE0B6650BE2D1217BD60C3473B6A49DBBDEED6B53DBF3C59BE2D4F82BC8341543E9BE5C4BDB2F2593E77D1AE3D32D159BE10B5183EE3CFDEBC1D7DD7BDED00413E890A43BE"> : tensor<10x2x3x3xf32>) {addr_space = 0 : i32} : !llvm.array<10 x array<2 x array<3 x array<3 x f32>>>>
  func.func @forward(%arg0: memref<*xf32>) attributes {llvm.emit_c_interface} {
    %0 = builtin.unrealized_conversion_cast %arg0 : memref<*xf32> to !llvm.struct<(i64, ptr)>
    %c-1_i64 = arith.constant -1 : i64
    %c0_i64 = arith.constant 0 : i64
    %c0 = arith.constant 0 : index
    %1 = builtin.unrealized_conversion_cast %c0 : index to i64
    %c1 = arith.constant 1 : index
    %2 = builtin.unrealized_conversion_cast %c1 : index to i64
    %c2 = arith.constant 2 : index
    %3 = builtin.unrealized_conversion_cast %c2 : index to i64
    %c3 = arith.constant 3 : index
    %4 = builtin.unrealized_conversion_cast %c3 : index to i64
    %c10 = arith.constant 10 : index
    %c2_i64 = arith.constant 2 : i64
    %c1_i64 = arith.constant 1 : i64
    %cst = arith.constant 0.000000e+00 : f32
    %c6 = arith.constant 6 : index
    %5 = llvm.extractvalue %0[1] : !llvm.struct<(i64, ptr)>
    %6 = llvm.load %5 : !llvm.ptr -> !llvm.struct<(ptr, ptr, i64, array<4 x i64>, array<4 x i64>)>
    %7 = llvm.mlir.constant(10 : index) : i64
    %8 = llvm.mlir.constant(2 : index) : i64
    %9 = llvm.mlir.constant(3 : index) : i64
    %10 = llvm.mlir.constant(3 : index) : i64
    %11 = llvm.mlir.constant(1 : index) : i64
    %12 = llvm.mlir.constant(9 : index) : i64
    %13 = llvm.mlir.constant(18 : index) : i64
    %14 = llvm.mlir.constant(180 : index) : i64
    %15 = llvm.mlir.null : !llvm.ptr
    %16 = llvm.getelementptr %15[%14] : (!llvm.ptr, i64) -> !llvm.ptr, f32
    %17 = llvm.ptrtoint %16 : !llvm.ptr to i64
    %18 = llvm.mlir.addressof @__constant_10x2x3x3xf32 : !llvm.ptr
    %19 = llvm.getelementptr %18[0, 0, 0, 0, 0] : (!llvm.ptr) -> !llvm.ptr, !llvm.array<10 x array<2 x array<3 x array<3 x f32>>>>
    %20 = llvm.mlir.constant(3735928559 : index) : i64
    %21 = llvm.inttoptr %20 : i64 to !llvm.ptr
    %22 = llvm.mlir.undef : !llvm.struct<(ptr, ptr, i64, array<4 x i64>, array<4 x i64>)>
    %23 = llvm.insertvalue %21, %22[0] : !llvm.struct<(ptr, ptr, i64, array<4 x i64>, array<4 x i64>)>
    %24 = llvm.insertvalue %19, %23[1] : !llvm.struct<(ptr, ptr, i64, array<4 x i64>, array<4 x i64>)>
    %25 = llvm.mlir.constant(0 : index) : i64
    %26 = llvm.insertvalue %25, %24[2] : !llvm.struct<(ptr, ptr, i64, array<4 x i64>, array<4 x i64>)>
    %27 = llvm.insertvalue %7, %26[3, 0] : !llvm.struct<(ptr, ptr, i64, array<4 x i64>, array<4 x i64>)>
    %28 = llvm.insertvalue %8, %27[3, 1] : !llvm.struct<(ptr, ptr, i64, array<4 x i64>, array<4 x i64>)>
    %29 = llvm.insertvalue %9, %28[3, 2] : !llvm.struct<(ptr, ptr, i64, array<4 x i64>, array<4 x i64>)>
    %30 = llvm.insertvalue %10, %29[3, 3] : !llvm.struct<(ptr, ptr, i64, array<4 x i64>, array<4 x i64>)>
    %31 = llvm.insertvalue %13, %30[4, 0] : !llvm.struct<(ptr, ptr, i64, array<4 x i64>, array<4 x i64>)>
    %32 = llvm.insertvalue %12, %31[4, 1] : !llvm.struct<(ptr, ptr, i64, array<4 x i64>, array<4 x i64>)>
    %33 = llvm.insertvalue %10, %32[4, 2] : !llvm.struct<(ptr, ptr, i64, array<4 x i64>, array<4 x i64>)>
    %34 = llvm.insertvalue %11, %33[4, 3] : !llvm.struct<(ptr, ptr, i64, array<4 x i64>, array<4 x i64>)>
    %35 = llvm.extractvalue %6[3, 0] : !llvm.struct<(ptr, ptr, i64, array<4 x i64>, array<4 x i64>)>
    %36 = builtin.unrealized_conversion_cast %35 : i64 to index
    %37 = llvm.extractvalue %6[3, 2] : !llvm.struct<(ptr, ptr, i64, array<4 x i64>, array<4 x i64>)>
    %38 = builtin.unrealized_conversion_cast %37 : i64 to index
    %39 = llvm.extractvalue %6[3, 3] : !llvm.struct<(ptr, ptr, i64, array<4 x i64>, array<4 x i64>)>
    %40 = builtin.unrealized_conversion_cast %39 : i64 to index
    %41 = llvm.extractvalue %6[3, 1] : !llvm.struct<(ptr, ptr, i64, array<4 x i64>, array<4 x i64>)>
    %42 = builtin.unrealized_conversion_cast %41 : i64 to index
    %43 = arith.addi %38, %c6 : index
    %44 = builtin.unrealized_conversion_cast %43 : index to i64
    %45 = arith.addi %40, %c6 : index
    %46 = builtin.unrealized_conversion_cast %45 : index to i64
    %47 = llvm.mlir.constant(1 : index) : i64
    %48 = llvm.mul %46, %44  : i64
    %49 = llvm.mul %48, %41  : i64
    %50 = llvm.mul %49, %35  : i64
    %51 = llvm.mlir.null : !llvm.ptr
    %52 = llvm.getelementptr %51[%50] : (!llvm.ptr, i64) -> !llvm.ptr, f32
    %53 = llvm.ptrtoint %52 : !llvm.ptr to i64
    %54 = llvm.mlir.constant(64 : index) : i64
    %55 = llvm.add %53, %54  : i64
    %56 = llvm.call @malloc(%55) : (i64) -> !llvm.ptr
    %57 = llvm.ptrtoint %56 : !llvm.ptr to i64
    %58 = llvm.mlir.constant(1 : index) : i64
    %59 = llvm.sub %54, %58  : i64
    %60 = llvm.add %57, %59  : i64
    %61 = llvm.urem %60, %54  : i64
    %62 = llvm.sub %60, %61  : i64
    %63 = llvm.inttoptr %62 : i64 to !llvm.ptr
    %64 = llvm.mlir.undef : !llvm.struct<(ptr, ptr, i64, array<4 x i64>, array<4 x i64>)>
    %65 = llvm.insertvalue %56, %64[0] : !llvm.struct<(ptr, ptr, i64, array<4 x i64>, array<4 x i64>)>
    %66 = llvm.insertvalue %63, %65[1] : !llvm.struct<(ptr, ptr, i64, array<4 x i64>, array<4 x i64>)>
    %67 = llvm.mlir.constant(0 : index) : i64
    %68 = llvm.insertvalue %67, %66[2] : !llvm.struct<(ptr, ptr, i64, array<4 x i64>, array<4 x i64>)>
    %69 = llvm.insertvalue %35, %68[3, 0] : !llvm.struct<(ptr, ptr, i64, array<4 x i64>, array<4 x i64>)>
    %70 = llvm.insertvalue %41, %69[3, 1] : !llvm.struct<(ptr, ptr, i64, array<4 x i64>, array<4 x i64>)>
    %71 = llvm.insertvalue %44, %70[3, 2] : !llvm.struct<(ptr, ptr, i64, array<4 x i64>, array<4 x i64>)>
    %72 = llvm.insertvalue %46, %71[3, 3] : !llvm.struct<(ptr, ptr, i64, array<4 x i64>, array<4 x i64>)>
    %73 = llvm.insertvalue %49, %72[4, 0] : !llvm.struct<(ptr, ptr, i64, array<4 x i64>, array<4 x i64>)>
    %74 = llvm.insertvalue %48, %73[4, 1] : !llvm.struct<(ptr, ptr, i64, array<4 x i64>, array<4 x i64>)>
    %75 = llvm.insertvalue %46, %74[4, 2] : !llvm.struct<(ptr, ptr, i64, array<4 x i64>, array<4 x i64>)>
    %76 = llvm.insertvalue %47, %75[4, 3] : !llvm.struct<(ptr, ptr, i64, array<4 x i64>, array<4 x i64>)>
    cf.br ^bb1(%c0 : index)
  ^bb1(%77: index):  // 2 preds: ^bb0, ^bb8
    %78 = builtin.unrealized_conversion_cast %77 : index to i64
    %79 = arith.cmpi slt, %77, %36 : index
    cf.cond_br %79, ^bb2(%c0 : index), ^bb9
  ^bb2(%80: index):  // 2 preds: ^bb1, ^bb7
    %81 = builtin.unrealized_conversion_cast %80 : index to i64
    %82 = arith.cmpi slt, %80, %42 : index
    cf.cond_br %82, ^bb3(%c0 : index), ^bb8
  ^bb3(%83: index):  // 2 preds: ^bb2, ^bb6
    %84 = builtin.unrealized_conversion_cast %83 : index to i64
    %85 = arith.cmpi slt, %83, %43 : index
    cf.cond_br %85, ^bb4(%c0 : index), ^bb7
  ^bb4(%86: index):  // 2 preds: ^bb3, ^bb5
    %87 = builtin.unrealized_conversion_cast %86 : index to i64
    %88 = arith.cmpi slt, %86, %45 : index
    cf.cond_br %88, ^bb5, ^bb6
  ^bb5:  // pred: ^bb4
    %89 = llvm.extractvalue %76[1] : !llvm.struct<(ptr, ptr, i64, array<4 x i64>, array<4 x i64>)>
    %90 = llvm.extractvalue %76[4, 0] : !llvm.struct<(ptr, ptr, i64, array<4 x i64>, array<4 x i64>)>
    %91 = llvm.mul %78, %90  : i64
    %92 = llvm.extractvalue %76[4, 1] : !llvm.struct<(ptr, ptr, i64, array<4 x i64>, array<4 x i64>)>
    %93 = llvm.mul %81, %92  : i64
    %94 = llvm.add %91, %93  : i64
    %95 = llvm.extractvalue %76[4, 2] : !llvm.struct<(ptr, ptr, i64, array<4 x i64>, array<4 x i64>)>
    %96 = llvm.mul %84, %95  : i64
    %97 = llvm.add %94, %96  : i64
    %98 = llvm.add %97, %87  : i64
    %99 = llvm.getelementptr %89[%98] : (!llvm.ptr, i64) -> !llvm.ptr, f32
    llvm.store %cst, %99 : f32, !llvm.ptr
    %100 = arith.addi %86, %c1 : index
    cf.br ^bb4(%100 : index)
  ^bb6:  // pred: ^bb4
    %101 = arith.addi %83, %c1 : index
    cf.br ^bb3(%101 : index)
  ^bb7:  // pred: ^bb3
    %102 = arith.addi %80, %c1 : index
    cf.br ^bb2(%102 : index)
  ^bb8:  // pred: ^bb2
    %103 = arith.addi %77, %c1 : index
    cf.br ^bb1(%103 : index)
  ^bb9:  // pred: ^bb1
    %104 = llvm.mlir.constant(1 : index) : i64
    %105 = llvm.mul %46, %44  : i64
    %106 = llvm.mul %105, %41  : i64
    %107 = llvm.mul %106, %35  : i64
    %108 = llvm.mlir.null : !llvm.ptr
    %109 = llvm.getelementptr %108[%107] : (!llvm.ptr, i64) -> !llvm.ptr, f32
    %110 = llvm.ptrtoint %109 : !llvm.ptr to i64
    %111 = llvm.mlir.constant(64 : index) : i64
    %112 = llvm.add %110, %111  : i64
    %113 = llvm.call @malloc(%112) : (i64) -> !llvm.ptr
    %114 = llvm.ptrtoint %113 : !llvm.ptr to i64
    %115 = llvm.mlir.constant(1 : index) : i64
    %116 = llvm.sub %111, %115  : i64
    %117 = llvm.add %114, %116  : i64
    %118 = llvm.urem %117, %111  : i64
    %119 = llvm.sub %117, %118  : i64
    %120 = llvm.inttoptr %119 : i64 to !llvm.ptr
    %121 = llvm.mlir.undef : !llvm.struct<(ptr, ptr, i64, array<4 x i64>, array<4 x i64>)>
    %122 = llvm.insertvalue %113, %121[0] : !llvm.struct<(ptr, ptr, i64, array<4 x i64>, array<4 x i64>)>
    %123 = llvm.insertvalue %120, %122[1] : !llvm.struct<(ptr, ptr, i64, array<4 x i64>, array<4 x i64>)>
    %124 = llvm.mlir.constant(0 : index) : i64
    %125 = llvm.insertvalue %124, %123[2] : !llvm.struct<(ptr, ptr, i64, array<4 x i64>, array<4 x i64>)>
    %126 = llvm.insertvalue %35, %125[3, 0] : !llvm.struct<(ptr, ptr, i64, array<4 x i64>, array<4 x i64>)>
    %127 = llvm.insertvalue %41, %126[3, 1] : !llvm.struct<(ptr, ptr, i64, array<4 x i64>, array<4 x i64>)>
    %128 = llvm.insertvalue %44, %127[3, 2] : !llvm.struct<(ptr, ptr, i64, array<4 x i64>, array<4 x i64>)>
    %129 = llvm.insertvalue %46, %128[3, 3] : !llvm.struct<(ptr, ptr, i64, array<4 x i64>, array<4 x i64>)>
    %130 = llvm.insertvalue %106, %129[4, 0] : !llvm.struct<(ptr, ptr, i64, array<4 x i64>, array<4 x i64>)>
    %131 = llvm.insertvalue %105, %130[4, 1] : !llvm.struct<(ptr, ptr, i64, array<4 x i64>, array<4 x i64>)>
    %132 = llvm.insertvalue %46, %131[4, 2] : !llvm.struct<(ptr, ptr, i64, array<4 x i64>, array<4 x i64>)>
    %133 = llvm.insertvalue %104, %132[4, 3] : !llvm.struct<(ptr, ptr, i64, array<4 x i64>, array<4 x i64>)>
    cf.br ^bb10(%c0 : index)
  ^bb10(%134: index):  // 2 preds: ^bb9, ^bb17
    %135 = builtin.unrealized_conversion_cast %134 : index to i64
    %136 = arith.cmpi slt, %134, %36 : index
    cf.cond_br %136, ^bb11(%c0 : index), ^bb18
  ^bb11(%137: index):  // 2 preds: ^bb10, ^bb16
    %138 = builtin.unrealized_conversion_cast %137 : index to i64
    %139 = arith.cmpi slt, %137, %42 : index
    cf.cond_br %139, ^bb12(%c0 : index), ^bb17
  ^bb12(%140: index):  // 2 preds: ^bb11, ^bb15
    %141 = builtin.unrealized_conversion_cast %140 : index to i64
    %142 = arith.cmpi slt, %140, %43 : index
    cf.cond_br %142, ^bb13(%c0 : index), ^bb16
  ^bb13(%143: index):  // 2 preds: ^bb12, ^bb14
    %144 = builtin.unrealized_conversion_cast %143 : index to i64
    %145 = arith.cmpi slt, %143, %45 : index
    cf.cond_br %145, ^bb14, ^bb15
  ^bb14:  // pred: ^bb13
    %146 = llvm.extractvalue %76[1] : !llvm.struct<(ptr, ptr, i64, array<4 x i64>, array<4 x i64>)>
    %147 = llvm.extractvalue %76[4, 0] : !llvm.struct<(ptr, ptr, i64, array<4 x i64>, array<4 x i64>)>
    %148 = llvm.mul %135, %147  : i64
    %149 = llvm.extractvalue %76[4, 1] : !llvm.struct<(ptr, ptr, i64, array<4 x i64>, array<4 x i64>)>
    %150 = llvm.mul %138, %149  : i64
    %151 = llvm.add %148, %150  : i64
    %152 = llvm.extractvalue %76[4, 2] : !llvm.struct<(ptr, ptr, i64, array<4 x i64>, array<4 x i64>)>
    %153 = llvm.mul %141, %152  : i64
    %154 = llvm.add %151, %153  : i64
    %155 = llvm.add %154, %144  : i64
    %156 = llvm.getelementptr %146[%155] : (!llvm.ptr, i64) -> !llvm.ptr, f32
    %157 = llvm.load %156 : !llvm.ptr -> f32
    %158 = llvm.extractvalue %133[1] : !llvm.struct<(ptr, ptr, i64, array<4 x i64>, array<4 x i64>)>
    %159 = llvm.extractvalue %133[4, 0] : !llvm.struct<(ptr, ptr, i64, array<4 x i64>, array<4 x i64>)>
    %160 = llvm.mul %135, %159  : i64
    %161 = llvm.extractvalue %133[4, 1] : !llvm.struct<(ptr, ptr, i64, array<4 x i64>, array<4 x i64>)>
    %162 = llvm.mul %138, %161  : i64
    %163 = llvm.add %160, %162  : i64
    %164 = llvm.extractvalue %133[4, 2] : !llvm.struct<(ptr, ptr, i64, array<4 x i64>, array<4 x i64>)>
    %165 = llvm.mul %141, %164  : i64
    %166 = llvm.add %163, %165  : i64
    %167 = llvm.add %166, %144  : i64
    %168 = llvm.getelementptr %158[%167] : (!llvm.ptr, i64) -> !llvm.ptr, f32
    llvm.store %157, %168 : f32, !llvm.ptr
    %169 = arith.addi %143, %c1 : index
    cf.br ^bb13(%169 : index)
  ^bb15:  // pred: ^bb13
    %170 = arith.addi %140, %c1 : index
    cf.br ^bb12(%170 : index)
  ^bb16:  // pred: ^bb12
    %171 = arith.addi %137, %c1 : index
    cf.br ^bb11(%171 : index)
  ^bb17:  // pred: ^bb11
    %172 = arith.addi %134, %c1 : index
    cf.br ^bb10(%172 : index)
  ^bb18:  // pred: ^bb10
    %173 = llvm.extractvalue %76[0] : !llvm.struct<(ptr, ptr, i64, array<4 x i64>, array<4 x i64>)>
    llvm.call @free(%173) : (!llvm.ptr) -> ()
    %174 = affine.apply #map()[%43, %45]
    %175 = builtin.unrealized_conversion_cast %174 : index to i64
    %176 = affine.apply #map1()[%42, %43, %45]
    %177 = builtin.unrealized_conversion_cast %176 : index to i64
    %178 = affine.apply #map2()[%45]
    %179 = builtin.unrealized_conversion_cast %178 : index to i64
    %180 = llvm.mlir.undef : !llvm.struct<(ptr, ptr, i64, array<4 x i64>, array<4 x i64>)>
    %181 = llvm.extractvalue %133[0] : !llvm.struct<(ptr, ptr, i64, array<4 x i64>, array<4 x i64>)>
    %182 = llvm.extractvalue %133[1] : !llvm.struct<(ptr, ptr, i64, array<4 x i64>, array<4 x i64>)>
    %183 = llvm.insertvalue %181, %180[0] : !llvm.struct<(ptr, ptr, i64, array<4 x i64>, array<4 x i64>)>
    %184 = llvm.insertvalue %182, %183[1] : !llvm.struct<(ptr, ptr, i64, array<4 x i64>, array<4 x i64>)>
    %185 = llvm.insertvalue %179, %184[2] : !llvm.struct<(ptr, ptr, i64, array<4 x i64>, array<4 x i64>)>
    %186 = llvm.insertvalue %35, %185[3, 0] : !llvm.struct<(ptr, ptr, i64, array<4 x i64>, array<4 x i64>)>
    %187 = llvm.insertvalue %177, %186[4, 0] : !llvm.struct<(ptr, ptr, i64, array<4 x i64>, array<4 x i64>)>
    %188 = llvm.insertvalue %41, %187[3, 1] : !llvm.struct<(ptr, ptr, i64, array<4 x i64>, array<4 x i64>)>
    %189 = llvm.insertvalue %175, %188[4, 1] : !llvm.struct<(ptr, ptr, i64, array<4 x i64>, array<4 x i64>)>
    %190 = llvm.insertvalue %37, %189[3, 2] : !llvm.struct<(ptr, ptr, i64, array<4 x i64>, array<4 x i64>)>
    %191 = llvm.insertvalue %46, %190[4, 2] : !llvm.struct<(ptr, ptr, i64, array<4 x i64>, array<4 x i64>)>
    %192 = llvm.insertvalue %39, %191[3, 3] : !llvm.struct<(ptr, ptr, i64, array<4 x i64>, array<4 x i64>)>
    %193 = llvm.mlir.constant(1 : index) : i64
    %194 = llvm.insertvalue %193, %192[4, 3] : !llvm.struct<(ptr, ptr, i64, array<4 x i64>, array<4 x i64>)>
    %195 = llvm.extractvalue %6[3, 0] : !llvm.struct<(ptr, ptr, i64, array<4 x i64>, array<4 x i64>)>
    %196 = builtin.unrealized_conversion_cast %195 : i64 to index
    %197 = llvm.extractvalue %6[3, 1] : !llvm.struct<(ptr, ptr, i64, array<4 x i64>, array<4 x i64>)>
    %198 = builtin.unrealized_conversion_cast %197 : i64 to index
    %199 = llvm.extractvalue %6[3, 2] : !llvm.struct<(ptr, ptr, i64, array<4 x i64>, array<4 x i64>)>
    %200 = builtin.unrealized_conversion_cast %199 : i64 to index
    %201 = llvm.extractvalue %6[3, 3] : !llvm.struct<(ptr, ptr, i64, array<4 x i64>, array<4 x i64>)>
    %202 = builtin.unrealized_conversion_cast %201 : i64 to index
    cf.br ^bb19(%c0 : index)
  ^bb19(%203: index):  // 2 preds: ^bb18, ^bb26
    %204 = builtin.unrealized_conversion_cast %203 : index to i64
    %205 = arith.cmpi slt, %203, %196 : index
    cf.cond_br %205, ^bb20(%c0 : index), ^bb27
  ^bb20(%206: index):  // 2 preds: ^bb19, ^bb25
    %207 = builtin.unrealized_conversion_cast %206 : index to i64
    %208 = arith.cmpi slt, %206, %198 : index
    cf.cond_br %208, ^bb21(%c0 : index), ^bb26
  ^bb21(%209: index):  // 2 preds: ^bb20, ^bb24
    %210 = builtin.unrealized_conversion_cast %209 : index to i64
    %211 = arith.cmpi slt, %209, %200 : index
    cf.cond_br %211, ^bb22(%c0 : index), ^bb25
  ^bb22(%212: index):  // 2 preds: ^bb21, ^bb23
    %213 = builtin.unrealized_conversion_cast %212 : index to i64
    %214 = arith.cmpi slt, %212, %202 : index
    cf.cond_br %214, ^bb23, ^bb24
  ^bb23:  // pred: ^bb22
    %215 = llvm.extractvalue %6[1] : !llvm.struct<(ptr, ptr, i64, array<4 x i64>, array<4 x i64>)>
    %216 = llvm.extractvalue %6[4, 0] : !llvm.struct<(ptr, ptr, i64, array<4 x i64>, array<4 x i64>)>
    %217 = llvm.mul %204, %216  : i64
    %218 = llvm.extractvalue %6[4, 1] : !llvm.struct<(ptr, ptr, i64, array<4 x i64>, array<4 x i64>)>
    %219 = llvm.mul %207, %218  : i64
    %220 = llvm.add %217, %219  : i64
    %221 = llvm.extractvalue %6[4, 2] : !llvm.struct<(ptr, ptr, i64, array<4 x i64>, array<4 x i64>)>
    %222 = llvm.mul %210, %221  : i64
    %223 = llvm.add %220, %222  : i64
    %224 = llvm.add %223, %213  : i64
    %225 = llvm.getelementptr %215[%224] : (!llvm.ptr, i64) -> !llvm.ptr, f32
    %226 = llvm.load %225 : !llvm.ptr -> f32
    %227 = llvm.extractvalue %194[1] : !llvm.struct<(ptr, ptr, i64, array<4 x i64>, array<4 x i64>)>
    %228 = llvm.extractvalue %194[2] : !llvm.struct<(ptr, ptr, i64, array<4 x i64>, array<4 x i64>)>
    %229 = llvm.getelementptr %227[%228] : (!llvm.ptr, i64) -> !llvm.ptr, f32
    %230 = llvm.extractvalue %194[4, 0] : !llvm.struct<(ptr, ptr, i64, array<4 x i64>, array<4 x i64>)>
    %231 = llvm.mul %204, %230  : i64
    %232 = llvm.extractvalue %194[4, 1] : !llvm.struct<(ptr, ptr, i64, array<4 x i64>, array<4 x i64>)>
    %233 = llvm.mul %207, %232  : i64
    %234 = llvm.add %231, %233  : i64
    %235 = llvm.extractvalue %194[4, 2] : !llvm.struct<(ptr, ptr, i64, array<4 x i64>, array<4 x i64>)>
    %236 = llvm.mul %210, %235  : i64
    %237 = llvm.add %234, %236  : i64
    %238 = llvm.add %237, %213  : i64
    %239 = llvm.getelementptr %229[%238] : (!llvm.ptr, i64) -> !llvm.ptr, f32
    llvm.store %226, %239 : f32, !llvm.ptr
    %240 = arith.addi %212, %c1 : index
    cf.br ^bb22(%240 : index)
  ^bb24:  // pred: ^bb22
    %241 = arith.addi %209, %c1 : index
    cf.br ^bb21(%241 : index)
  ^bb25:  // pred: ^bb21
    %242 = arith.addi %206, %c1 : index
    cf.br ^bb20(%242 : index)
  ^bb26:  // pred: ^bb20
    %243 = arith.addi %203, %c1 : index
    cf.br ^bb19(%243 : index)
  ^bb27:  // pred: ^bb19
    %244 = arith.index_cast %38 : index to i64
    %245 = arith.subi %244, %c1_i64 : i64
    %246 = arith.subi %c-1_i64, %245 : i64
    %247 = arith.divsi %246, %c2_i64 : i64
    %248 = arith.subi %c-1_i64, %247 : i64
    %249 = arith.divsi %245, %c2_i64 : i64
    %250 = arith.cmpi slt, %245, %c0_i64 : i64
    %251 = arith.select %250, %248, %249 : i64
    %252 = arith.addi %251, %c1_i64 : i64
    %253 = arith.index_cast %252 : i64 to index
    %254 = builtin.unrealized_conversion_cast %253 : index to i64
    %255 = arith.index_cast %40 : index to i64
    %256 = arith.subi %255, %c1_i64 : i64
    %257 = arith.subi %c-1_i64, %256 : i64
    %258 = arith.divsi %257, %c2_i64 : i64
    %259 = arith.subi %c-1_i64, %258 : i64
    %260 = arith.divsi %256, %c2_i64 : i64
    %261 = arith.cmpi slt, %256, %c0_i64 : i64
    %262 = arith.select %261, %259, %260 : i64
    %263 = arith.addi %262, %c1_i64 : i64
    %264 = arith.index_cast %263 : i64 to index
    %265 = builtin.unrealized_conversion_cast %264 : index to i64
    %266 = llvm.mlir.constant(10 : index) : i64
    %267 = llvm.mlir.constant(1 : index) : i64
    %268 = llvm.mul %265, %254  : i64
    %269 = llvm.mul %268, %266  : i64
    %270 = llvm.mul %269, %35  : i64
    %271 = llvm.mlir.null : !llvm.ptr
    %272 = llvm.getelementptr %271[%270] : (!llvm.ptr, i64) -> !llvm.ptr, f32
    %273 = llvm.ptrtoint %272 : !llvm.ptr to i64
    %274 = llvm.mlir.constant(64 : index) : i64
    %275 = llvm.add %273, %274  : i64
    %276 = llvm.call @malloc(%275) : (i64) -> !llvm.ptr
    %277 = llvm.ptrtoint %276 : !llvm.ptr to i64
    %278 = llvm.mlir.constant(1 : index) : i64
    %279 = llvm.sub %274, %278  : i64
    %280 = llvm.add %277, %279  : i64
    %281 = llvm.urem %280, %274  : i64
    %282 = llvm.sub %280, %281  : i64
    %283 = llvm.inttoptr %282 : i64 to !llvm.ptr
    %284 = llvm.mlir.undef : !llvm.struct<(ptr, ptr, i64, array<4 x i64>, array<4 x i64>)>
    %285 = llvm.insertvalue %276, %284[0] : !llvm.struct<(ptr, ptr, i64, array<4 x i64>, array<4 x i64>)>
    %286 = llvm.insertvalue %283, %285[1] : !llvm.struct<(ptr, ptr, i64, array<4 x i64>, array<4 x i64>)>
    %287 = llvm.mlir.constant(0 : index) : i64
    %288 = llvm.insertvalue %287, %286[2] : !llvm.struct<(ptr, ptr, i64, array<4 x i64>, array<4 x i64>)>
    %289 = llvm.insertvalue %35, %288[3, 0] : !llvm.struct<(ptr, ptr, i64, array<4 x i64>, array<4 x i64>)>
    %290 = llvm.insertvalue %266, %289[3, 1] : !llvm.struct<(ptr, ptr, i64, array<4 x i64>, array<4 x i64>)>
    %291 = llvm.insertvalue %254, %290[3, 2] : !llvm.struct<(ptr, ptr, i64, array<4 x i64>, array<4 x i64>)>
    %292 = llvm.insertvalue %265, %291[3, 3] : !llvm.struct<(ptr, ptr, i64, array<4 x i64>, array<4 x i64>)>
    %293 = llvm.insertvalue %269, %292[4, 0] : !llvm.struct<(ptr, ptr, i64, array<4 x i64>, array<4 x i64>)>
    %294 = llvm.insertvalue %268, %293[4, 1] : !llvm.struct<(ptr, ptr, i64, array<4 x i64>, array<4 x i64>)>
    %295 = llvm.insertvalue %265, %294[4, 2] : !llvm.struct<(ptr, ptr, i64, array<4 x i64>, array<4 x i64>)>
    %296 = llvm.insertvalue %267, %295[4, 3] : !llvm.struct<(ptr, ptr, i64, array<4 x i64>, array<4 x i64>)>
    cf.br ^bb28(%c0 : index)
  ^bb28(%297: index):  // 2 preds: ^bb27, ^bb35
    %298 = builtin.unrealized_conversion_cast %297 : index to i64
    %299 = arith.cmpi slt, %297, %36 : index
    cf.cond_br %299, ^bb29(%c0 : index), ^bb36
  ^bb29(%300: index):  // 2 preds: ^bb28, ^bb34
    %301 = builtin.unrealized_conversion_cast %300 : index to i64
    %302 = arith.cmpi slt, %300, %c10 : index
    cf.cond_br %302, ^bb30(%c0 : index), ^bb35
  ^bb30(%303: index):  // 2 preds: ^bb29, ^bb33
    %304 = builtin.unrealized_conversion_cast %303 : index to i64
    %305 = arith.cmpi slt, %303, %253 : index
    cf.cond_br %305, ^bb31(%c0 : index), ^bb34
  ^bb31(%306: index):  // 2 preds: ^bb30, ^bb32
    %307 = builtin.unrealized_conversion_cast %306 : index to i64
    %308 = arith.cmpi slt, %306, %264 : index
    cf.cond_br %308, ^bb32, ^bb33
  ^bb32:  // pred: ^bb31
    %309 = llvm.extractvalue %296[1] : !llvm.struct<(ptr, ptr, i64, array<4 x i64>, array<4 x i64>)>
    %310 = llvm.extractvalue %296[4, 0] : !llvm.struct<(ptr, ptr, i64, array<4 x i64>, array<4 x i64>)>
    %311 = llvm.mul %298, %310  : i64
    %312 = llvm.extractvalue %296[4, 1] : !llvm.struct<(ptr, ptr, i64, array<4 x i64>, array<4 x i64>)>
    %313 = llvm.mul %301, %312  : i64
    %314 = llvm.add %311, %313  : i64
    %315 = llvm.extractvalue %296[4, 2] : !llvm.struct<(ptr, ptr, i64, array<4 x i64>, array<4 x i64>)>
    %316 = llvm.mul %304, %315  : i64
    %317 = llvm.add %314, %316  : i64
    %318 = llvm.add %317, %307  : i64
    %319 = llvm.getelementptr %309[%318] : (!llvm.ptr, i64) -> !llvm.ptr, f32
    llvm.store %cst, %319 : f32, !llvm.ptr
    %320 = arith.addi %306, %c1 : index
    cf.br ^bb31(%320 : index)
  ^bb33:  // pred: ^bb31
    %321 = arith.addi %303, %c1 : index
    cf.br ^bb30(%321 : index)
  ^bb34:  // pred: ^bb30
    %322 = arith.addi %300, %c1 : index
    cf.br ^bb29(%322 : index)
  ^bb35:  // pred: ^bb29
    %323 = arith.addi %297, %c1 : index
    cf.br ^bb28(%323 : index)
  ^bb36:  // pred: ^bb28
    %324 = llvm.mlir.constant(10 : index) : i64
    %325 = llvm.mlir.constant(1 : index) : i64
    %326 = llvm.mul %265, %254  : i64
    %327 = llvm.mul %326, %324  : i64
    %328 = llvm.mul %327, %35  : i64
    %329 = llvm.mlir.null : !llvm.ptr
    %330 = llvm.getelementptr %329[%328] : (!llvm.ptr, i64) -> !llvm.ptr, f32
    %331 = llvm.ptrtoint %330 : !llvm.ptr to i64
    %332 = llvm.mlir.constant(64 : index) : i64
    %333 = llvm.add %331, %332  : i64
    %334 = llvm.call @malloc(%333) : (i64) -> !llvm.ptr
    %335 = llvm.ptrtoint %334 : !llvm.ptr to i64
    %336 = llvm.mlir.constant(1 : index) : i64
    %337 = llvm.sub %332, %336  : i64
    %338 = llvm.add %335, %337  : i64
    %339 = llvm.urem %338, %332  : i64
    %340 = llvm.sub %338, %339  : i64
    %341 = llvm.inttoptr %340 : i64 to !llvm.ptr
    %342 = llvm.mlir.undef : !llvm.struct<(ptr, ptr, i64, array<4 x i64>, array<4 x i64>)>
    %343 = llvm.insertvalue %334, %342[0] : !llvm.struct<(ptr, ptr, i64, array<4 x i64>, array<4 x i64>)>
    %344 = llvm.insertvalue %341, %343[1] : !llvm.struct<(ptr, ptr, i64, array<4 x i64>, array<4 x i64>)>
    %345 = llvm.mlir.constant(0 : index) : i64
    %346 = llvm.insertvalue %345, %344[2] : !llvm.struct<(ptr, ptr, i64, array<4 x i64>, array<4 x i64>)>
    %347 = llvm.insertvalue %35, %346[3, 0] : !llvm.struct<(ptr, ptr, i64, array<4 x i64>, array<4 x i64>)>
    %348 = llvm.insertvalue %324, %347[3, 1] : !llvm.struct<(ptr, ptr, i64, array<4 x i64>, array<4 x i64>)>
    %349 = llvm.insertvalue %254, %348[3, 2] : !llvm.struct<(ptr, ptr, i64, array<4 x i64>, array<4 x i64>)>
    %350 = llvm.insertvalue %265, %349[3, 3] : !llvm.struct<(ptr, ptr, i64, array<4 x i64>, array<4 x i64>)>
    %351 = llvm.insertvalue %327, %350[4, 0] : !llvm.struct<(ptr, ptr, i64, array<4 x i64>, array<4 x i64>)>
    %352 = llvm.insertvalue %326, %351[4, 1] : !llvm.struct<(ptr, ptr, i64, array<4 x i64>, array<4 x i64>)>
    %353 = llvm.insertvalue %265, %352[4, 2] : !llvm.struct<(ptr, ptr, i64, array<4 x i64>, array<4 x i64>)>
    %354 = llvm.insertvalue %325, %353[4, 3] : !llvm.struct<(ptr, ptr, i64, array<4 x i64>, array<4 x i64>)>
    cf.br ^bb37(%c0 : index)
  ^bb37(%355: index):  // 2 preds: ^bb36, ^bb44
    %356 = builtin.unrealized_conversion_cast %355 : index to i64
    %357 = arith.cmpi slt, %355, %36 : index
    cf.cond_br %357, ^bb38(%c0 : index), ^bb45
  ^bb38(%358: index):  // 2 preds: ^bb37, ^bb43
    %359 = builtin.unrealized_conversion_cast %358 : index to i64
    %360 = arith.cmpi slt, %358, %c10 : index
    cf.cond_br %360, ^bb39(%c0 : index), ^bb44
  ^bb39(%361: index):  // 2 preds: ^bb38, ^bb42
    %362 = builtin.unrealized_conversion_cast %361 : index to i64
    %363 = arith.cmpi slt, %361, %253 : index
    cf.cond_br %363, ^bb40(%c0 : index), ^bb43
  ^bb40(%364: index):  // 2 preds: ^bb39, ^bb41
    %365 = builtin.unrealized_conversion_cast %364 : index to i64
    %366 = arith.cmpi slt, %364, %264 : index
    cf.cond_br %366, ^bb41, ^bb42
  ^bb41:  // pred: ^bb40
    %367 = llvm.extractvalue %296[1] : !llvm.struct<(ptr, ptr, i64, array<4 x i64>, array<4 x i64>)>
    %368 = llvm.extractvalue %296[4, 0] : !llvm.struct<(ptr, ptr, i64, array<4 x i64>, array<4 x i64>)>
    %369 = llvm.mul %356, %368  : i64
    %370 = llvm.extractvalue %296[4, 1] : !llvm.struct<(ptr, ptr, i64, array<4 x i64>, array<4 x i64>)>
    %371 = llvm.mul %359, %370  : i64
    %372 = llvm.add %369, %371  : i64
    %373 = llvm.extractvalue %296[4, 2] : !llvm.struct<(ptr, ptr, i64, array<4 x i64>, array<4 x i64>)>
    %374 = llvm.mul %362, %373  : i64
    %375 = llvm.add %372, %374  : i64
    %376 = llvm.add %375, %365  : i64
    %377 = llvm.getelementptr %367[%376] : (!llvm.ptr, i64) -> !llvm.ptr, f32
    %378 = llvm.load %377 : !llvm.ptr -> f32
    %379 = llvm.extractvalue %354[1] : !llvm.struct<(ptr, ptr, i64, array<4 x i64>, array<4 x i64>)>
    %380 = llvm.extractvalue %354[4, 0] : !llvm.struct<(ptr, ptr, i64, array<4 x i64>, array<4 x i64>)>
    %381 = llvm.mul %356, %380  : i64
    %382 = llvm.extractvalue %354[4, 1] : !llvm.struct<(ptr, ptr, i64, array<4 x i64>, array<4 x i64>)>
    %383 = llvm.mul %359, %382  : i64
    %384 = llvm.add %381, %383  : i64
    %385 = llvm.extractvalue %354[4, 2] : !llvm.struct<(ptr, ptr, i64, array<4 x i64>, array<4 x i64>)>
    %386 = llvm.mul %362, %385  : i64
    %387 = llvm.add %384, %386  : i64
    %388 = llvm.add %387, %365  : i64
    %389 = llvm.getelementptr %379[%388] : (!llvm.ptr, i64) -> !llvm.ptr, f32
    llvm.store %378, %389 : f32, !llvm.ptr
    %390 = arith.addi %364, %c1 : index
    cf.br ^bb40(%390 : index)
  ^bb42:  // pred: ^bb40
    %391 = arith.addi %361, %c1 : index
    cf.br ^bb39(%391 : index)
  ^bb43:  // pred: ^bb39
    %392 = arith.addi %358, %c1 : index
    cf.br ^bb38(%392 : index)
  ^bb44:  // pred: ^bb38
    %393 = arith.addi %355, %c1 : index
    cf.br ^bb37(%393 : index)
  ^bb45:  // pred: ^bb37
    %394 = llvm.extractvalue %296[0] : !llvm.struct<(ptr, ptr, i64, array<4 x i64>, array<4 x i64>)>
    llvm.call @free(%394) : (!llvm.ptr) -> ()
    cf.br ^bb46(%c0 : index)
  ^bb46(%395: index):  // 2 preds: ^bb45, ^bb59
    %396 = builtin.unrealized_conversion_cast %395 : index to i64
    %397 = arith.cmpi slt, %395, %36 : index
    cf.cond_br %397, ^bb47(%c0 : index), ^bb60
  ^bb47(%398: index):  // 2 preds: ^bb46, ^bb58
    %399 = builtin.unrealized_conversion_cast %398 : index to i64
    %400 = arith.cmpi slt, %398, %c10 : index
    cf.cond_br %400, ^bb48(%c0 : index), ^bb59
  ^bb48(%401: index):  // 2 preds: ^bb47, ^bb57
    %402 = builtin.unrealized_conversion_cast %401 : index to i64
    %403 = arith.cmpi slt, %401, %253 : index
    cf.cond_br %403, ^bb49(%c0 : index), ^bb58
  ^bb49(%404: index):  // 2 preds: ^bb48, ^bb56
    %405 = builtin.unrealized_conversion_cast %404 : index to i64
    %406 = arith.cmpi slt, %404, %264 : index
    cf.cond_br %406, ^bb50(%c0 : index), ^bb57
  ^bb50(%407: index):  // 2 preds: ^bb49, ^bb55
    %408 = builtin.unrealized_conversion_cast %407 : index to i64
    %409 = arith.cmpi slt, %407, %42 : index
    cf.cond_br %409, ^bb51(%c0 : index), ^bb56
  ^bb51(%410: index):  // 2 preds: ^bb50, ^bb54
    %411 = builtin.unrealized_conversion_cast %410 : index to i64
    %412 = arith.cmpi slt, %410, %c3 : index
    cf.cond_br %412, ^bb52(%c0 : index), ^bb55
  ^bb52(%413: index):  // 2 preds: ^bb51, ^bb53
    %414 = builtin.unrealized_conversion_cast %413 : index to i64
    %415 = arith.cmpi slt, %413, %c3 : index
    cf.cond_br %415, ^bb53, ^bb54
  ^bb53:  // pred: ^bb52
    %416 = arith.muli %401, %c2 : index
    %417 = arith.muli %410, %c3 : index
    %418 = arith.addi %416, %417 : index
    %419 = builtin.unrealized_conversion_cast %418 : index to i64
    %420 = arith.muli %404, %c2 : index
    %421 = arith.muli %413, %c3 : index
    %422 = arith.addi %420, %421 : index
    %423 = builtin.unrealized_conversion_cast %422 : index to i64
    %424 = llvm.extractvalue %133[1] : !llvm.struct<(ptr, ptr, i64, array<4 x i64>, array<4 x i64>)>
    %425 = llvm.extractvalue %133[4, 0] : !llvm.struct<(ptr, ptr, i64, array<4 x i64>, array<4 x i64>)>
    %426 = llvm.mul %396, %425  : i64
    %427 = llvm.extractvalue %133[4, 1] : !llvm.struct<(ptr, ptr, i64, array<4 x i64>, array<4 x i64>)>
    %428 = llvm.mul %408, %427  : i64
    %429 = llvm.add %426, %428  : i64
    %430 = llvm.extractvalue %133[4, 2] : !llvm.struct<(ptr, ptr, i64, array<4 x i64>, array<4 x i64>)>
    %431 = llvm.mul %419, %430  : i64
    %432 = llvm.add %429, %431  : i64
    %433 = llvm.add %432, %423  : i64
    %434 = llvm.getelementptr %424[%433] : (!llvm.ptr, i64) -> !llvm.ptr, f32
    %435 = llvm.load %434 : !llvm.ptr -> f32
    %436 = llvm.extractvalue %34[1] : !llvm.struct<(ptr, ptr, i64, array<4 x i64>, array<4 x i64>)>
    %437 = llvm.mlir.constant(18 : index) : i64
    %438 = llvm.mul %399, %437  : i64
    %439 = llvm.mlir.constant(9 : index) : i64
    %440 = llvm.mul %408, %439  : i64
    %441 = llvm.add %438, %440  : i64
    %442 = llvm.mlir.constant(3 : index) : i64
    %443 = llvm.mul %411, %442  : i64
    %444 = llvm.add %441, %443  : i64
    %445 = llvm.add %444, %414  : i64
    %446 = llvm.getelementptr %436[%445] : (!llvm.ptr, i64) -> !llvm.ptr, f32
    %447 = llvm.load %446 : !llvm.ptr -> f32
    %448 = llvm.extractvalue %354[1] : !llvm.struct<(ptr, ptr, i64, array<4 x i64>, array<4 x i64>)>
    %449 = llvm.extractvalue %354[4, 0] : !llvm.struct<(ptr, ptr, i64, array<4 x i64>, array<4 x i64>)>
    %450 = llvm.mul %396, %449  : i64
    %451 = llvm.extractvalue %354[4, 1] : !llvm.struct<(ptr, ptr, i64, array<4 x i64>, array<4 x i64>)>
    %452 = llvm.mul %399, %451  : i64
    %453 = llvm.add %450, %452  : i64
    %454 = llvm.extractvalue %354[4, 2] : !llvm.struct<(ptr, ptr, i64, array<4 x i64>, array<4 x i64>)>
    %455 = llvm.mul %402, %454  : i64
    %456 = llvm.add %453, %455  : i64
    %457 = llvm.add %456, %405  : i64
    %458 = llvm.getelementptr %448[%457] : (!llvm.ptr, i64) -> !llvm.ptr, f32
    %459 = llvm.load %458 : !llvm.ptr -> f32
    %460 = arith.mulf %435, %447 : f32
    %461 = arith.addf %459, %460 : f32
    %462 = llvm.extractvalue %354[1] : !llvm.struct<(ptr, ptr, i64, array<4 x i64>, array<4 x i64>)>
    %463 = llvm.extractvalue %354[4, 0] : !llvm.struct<(ptr, ptr, i64, array<4 x i64>, array<4 x i64>)>
    %464 = llvm.mul %396, %463  : i64
    %465 = llvm.extractvalue %354[4, 1] : !llvm.struct<(ptr, ptr, i64, array<4 x i64>, array<4 x i64>)>
    %466 = llvm.mul %399, %465  : i64
    %467 = llvm.add %464, %466  : i64
    %468 = llvm.extractvalue %354[4, 2] : !llvm.struct<(ptr, ptr, i64, array<4 x i64>, array<4 x i64>)>
    %469 = llvm.mul %402, %468  : i64
    %470 = llvm.add %467, %469  : i64
    %471 = llvm.add %470, %405  : i64
    %472 = llvm.getelementptr %462[%471] : (!llvm.ptr, i64) -> !llvm.ptr, f32
    llvm.store %461, %472 : f32, !llvm.ptr
    %473 = arith.addi %413, %c1 : index
    cf.br ^bb52(%473 : index)
  ^bb54:  // pred: ^bb52
    %474 = arith.addi %410, %c1 : index
    cf.br ^bb51(%474 : index)
  ^bb55:  // pred: ^bb51
    %475 = arith.addi %407, %c1 : index
    cf.br ^bb50(%475 : index)
  ^bb56:  // pred: ^bb50
    %476 = arith.addi %404, %c1 : index
    cf.br ^bb49(%476 : index)
  ^bb57:  // pred: ^bb49
    %477 = arith.addi %401, %c1 : index
    cf.br ^bb48(%477 : index)
  ^bb58:  // pred: ^bb48
    %478 = arith.addi %398, %c1 : index
    cf.br ^bb47(%478 : index)
  ^bb59:  // pred: ^bb47
    %479 = arith.addi %395, %c1 : index
    cf.br ^bb46(%479 : index)
  ^bb60:  // pred: ^bb46
    %480 = llvm.extractvalue %133[0] : !llvm.struct<(ptr, ptr, i64, array<4 x i64>, array<4 x i64>)>
    llvm.call @free(%480) : (!llvm.ptr) -> ()
    %481 = llvm.mlir.constant(1 : index) : i64
    %482 = llvm.alloca %481 x !llvm.struct<(ptr, ptr, i64, array<4 x i64>, array<4 x i64>)> : (i64) -> !llvm.ptr
    llvm.store %354, %482 : !llvm.struct<(ptr, ptr, i64, array<4 x i64>, array<4 x i64>)>, !llvm.ptr
    %483 = llvm.mlir.constant(4 : index) : i64
    %484 = llvm.mlir.undef : !llvm.struct<(i64, ptr)>
    %485 = llvm.insertvalue %483, %484[0] : !llvm.struct<(i64, ptr)>
    %486 = llvm.insertvalue %482, %485[1] : !llvm.struct<(i64, ptr)>
    %487 = builtin.unrealized_conversion_cast %486 : !llvm.struct<(i64, ptr)> to memref<*xf32>
    call @refbackend_consume_func_return_mrf32(%487) : (memref<*xf32>) -> ()
    return
  }
}
