module attributes {torch.debug_module_name = "Conv2dWithPaddingDilationStrideModule"} {
  llvm.func @free(!llvm.ptr)
  llvm.func @malloc(i64) -> !llvm.ptr
  func.func private @refbackend_consume_func_return_mrf32(memref<*xf32>) attributes {llvm.emit_c_interface}
  llvm.mlir.global private @global_seed(0 : i64) {addr_space = 0 : i32} : i64
  llvm.mlir.global private constant @__constant_10x2x3x3xf32(dense<"0x2E4CE7BABE79013E42A646BE27A031BEC9EBB9BDC771813DE50699BB015F3F3E7D5AABBC74777F3D3EE291BD7AC53DBD029566BE0BD91FBED4FCC6BD880D0F3CE4D5BE3D2BD2103E94A023BEB234D2BDDF54AF3DF56B483EDFAF46BDA39C343EBF9C1BBD4750CC3C818B5A3ED6E65FBED9F117BE3B6A74BDDE29BCBDD388503EAE711CBE0936DEBD8D9F28BE2B0C62BE1EE40CBEC9784F3ED265D73DD5F5E93D62184B3C4F7BF7BD4A56233D115B61BEE0652EBE11DBF8BD5A48183E94830D3E4915D6BD4C570BBC225D1A3E6EF16F3E0F95BF3D6F6C023DF7D3213EE11C0EBE40E7333D86203BBE5C4827BE435DF9BDC06ADA3D5221C23D3DF80EBE25D5913DD97F043EAEB5F3BC8A72133C39B25F3DCABB153E69C0673E3DFF39BED1E6B0BD8AB6BD3D5BFA473E5008523E00F7543ECA22403DB7E151BE36A0B13CDDFE16BE85EF60BE1D72563E0F85373E31C370BEE6B3343D2FA322BD93DF1EBDB4F7DCBDDDA1B93D36F50EBED8F5B03D511DF43D3AC82C3E657EB43DB2E16EBEA4911CBE4907F13D31114A3DC7473CBEB2FA0ABEF40E633ED0A1223E2F7AD2BD55FC72BD11EB65BEB7D28ABBF4C135BE892C3ABEDAC754BC9CF4103D0FB0C5BD93370F3E60E012BE86005B3E4367253EB6884BBE314870BD8A402E3CB5DB0C3D08FA643DAA6EBD3DB851673C3888EBBDBE6AE43D028667BE1F0E0FBE75AD71BD7523EBBDF6DEA8BDBBD245BEEB5C4DBD475E4E3DB93C1DBEAD2E46BCF2C62C3E857EC6BC27A7D63B0493A6BCE862433D3577193E63A0643ECB46193E4D26653ED8A48BBC6ED158BE81D8E4BDBA57243E0345C8BAEFEEEFBDD2F438BE5DE061BE86B54BBE74D343BDE05C043E187D023E41C668BE348E163EA4DD3CBE6B1A4CBDA2BAC3BD33F539BD718E3DBD669558BE0B6650BE2D1217BD60C3473B6A49DBBDEED6B53DBF3C59BE2D4F82BC8341543E9BE5C4BDB2F2593E77D1AE3D32D159BE10B5183EE3CFDEBC1D7DD7BDED00413E890A43BE"> : tensor<10x2x3x3xf32>) {addr_space = 0 : i32} : !llvm.array<10 x array<2 x array<3 x array<3 x f32>>>>
  func.func @forward(%arg0: memref<*xf32>) attributes {llvm.emit_c_interface} {
    %0 = builtin.unrealized_conversion_cast %arg0 : memref<*xf32> to !llvm.struct<(i64, ptr)>
    %c-1_i64 = arith.constant -1 : i64
    %c0_i64 = arith.constant 0 : i64
    %c0 = arith.constant 0 : index
    %1 = builtin.unrealized_conversion_cast %c0 : index to i64
    %c1 = arith.constant 1 : index
    %2 = builtin.unrealized_conversion_cast %c1 : index to i64
    %c2 = arith.constant 2 : index
    %3 = builtin.unrealized_conversion_cast %c2 : index to i64
    %c3 = arith.constant 3 : index
    %4 = builtin.unrealized_conversion_cast %c3 : index to i64
    %c10 = arith.constant 10 : index
    %c2_i64 = arith.constant 2 : i64
    %c1_i64 = arith.constant 1 : i64
    %cst = arith.constant 0.000000e+00 : f32
    %c6 = arith.constant 6 : index
    %5 = llvm.extractvalue %0[1] : !llvm.struct<(i64, ptr)>
    %6 = llvm.load %5 : !llvm.ptr -> !llvm.struct<(ptr, ptr, i64, array<4 x i64>, array<4 x i64>)>
    %7 = llvm.mlir.constant(10 : index) : i64
    %8 = llvm.mlir.constant(2 : index) : i64
    %9 = llvm.mlir.constant(3 : index) : i64
    %10 = llvm.mlir.constant(3 : index) : i64
    %11 = llvm.mlir.constant(1 : index) : i64
    %12 = llvm.mlir.constant(9 : index) : i64
    %13 = llvm.mlir.constant(18 : index) : i64
    %14 = llvm.mlir.constant(180 : index) : i64
    %15 = llvm.mlir.null : !llvm.ptr
    %16 = llvm.getelementptr %15[180] : (!llvm.ptr) -> !llvm.ptr, f32
    %17 = llvm.ptrtoint %16 : !llvm.ptr to i64
    %18 = llvm.mlir.addressof @__constant_10x2x3x3xf32 : !llvm.ptr
    %19 = llvm.getelementptr %18[0, 0, 0, 0, 0] : (!llvm.ptr) -> !llvm.ptr, !llvm.array<10 x array<2 x array<3 x array<3 x f32>>>>
    %20 = llvm.mlir.constant(3735928559 : index) : i64
    %21 = llvm.inttoptr %20 : i64 to !llvm.ptr
    %22 = llvm.mlir.undef : !llvm.struct<(ptr, ptr, i64, array<4 x i64>, array<4 x i64>)>
    %23 = llvm.insertvalue %21, %22[0] : !llvm.struct<(ptr, ptr, i64, array<4 x i64>, array<4 x i64>)>
    %24 = llvm.insertvalue %19, %23[1] : !llvm.struct<(ptr, ptr, i64, array<4 x i64>, array<4 x i64>)>
    %25 = llvm.mlir.constant(0 : index) : i64
    %26 = llvm.insertvalue %25, %24[2] : !llvm.struct<(ptr, ptr, i64, array<4 x i64>, array<4 x i64>)>
    %27 = llvm.insertvalue %7, %26[3, 0] : !llvm.struct<(ptr, ptr, i64, array<4 x i64>, array<4 x i64>)>
    %28 = llvm.insertvalue %8, %27[3, 1] : !llvm.struct<(ptr, ptr, i64, array<4 x i64>, array<4 x i64>)>
    %29 = llvm.insertvalue %9, %28[3, 2] : !llvm.struct<(ptr, ptr, i64, array<4 x i64>, array<4 x i64>)>
    %30 = llvm.insertvalue %10, %29[3, 3] : !llvm.struct<(ptr, ptr, i64, array<4 x i64>, array<4 x i64>)>
    %31 = llvm.insertvalue %13, %30[4, 0] : !llvm.struct<(ptr, ptr, i64, array<4 x i64>, array<4 x i64>)>
    %32 = llvm.insertvalue %12, %31[4, 1] : !llvm.struct<(ptr, ptr, i64, array<4 x i64>, array<4 x i64>)>
    %33 = llvm.insertvalue %10, %32[4, 2] : !llvm.struct<(ptr, ptr, i64, array<4 x i64>, array<4 x i64>)>
    %34 = llvm.insertvalue %11, %33[4, 3] : !llvm.struct<(ptr, ptr, i64, array<4 x i64>, array<4 x i64>)>
    %35 = llvm.extractvalue %6[3, 0] : !llvm.struct<(ptr, ptr, i64, array<4 x i64>, array<4 x i64>)>
    %36 = builtin.unrealized_conversion_cast %35 : i64 to index
    %37 = llvm.extractvalue %6[3, 2] : !llvm.struct<(ptr, ptr, i64, array<4 x i64>, array<4 x i64>)>
    %38 = builtin.unrealized_conversion_cast %37 : i64 to index
    %39 = llvm.extractvalue %6[3, 3] : !llvm.struct<(ptr, ptr, i64, array<4 x i64>, array<4 x i64>)>
    %40 = builtin.unrealized_conversion_cast %39 : i64 to index
    %41 = llvm.extractvalue %6[3, 1] : !llvm.struct<(ptr, ptr, i64, array<4 x i64>, array<4 x i64>)>
    %42 = builtin.unrealized_conversion_cast %41 : i64 to index
    %43 = arith.addi %38, %c6 : index
    %44 = builtin.unrealized_conversion_cast %43 : index to i64
    %45 = arith.addi %40, %c6 : index
    %46 = builtin.unrealized_conversion_cast %45 : index to i64
    %47 = llvm.mlir.constant(1 : index) : i64
    %48 = llvm.mul %46, %44  : i64
    %49 = llvm.mul %48, %41  : i64
    %50 = llvm.mul %49, %35  : i64
    %51 = llvm.mlir.null : !llvm.ptr
    %52 = llvm.getelementptr %51[%50] : (!llvm.ptr, i64) -> !llvm.ptr, f32
    %53 = llvm.ptrtoint %52 : !llvm.ptr to i64
    %54 = llvm.mlir.constant(64 : index) : i64
    %55 = llvm.add %53, %54  : i64
    %56 = llvm.call @malloc(%55) : (i64) -> !llvm.ptr
    %57 = llvm.ptrtoint %56 : !llvm.ptr to i64
    %58 = llvm.mlir.constant(1 : index) : i64
    %59 = llvm.sub %54, %58  : i64
    %60 = llvm.add %57, %59  : i64
    %61 = llvm.urem %60, %54  : i64
    %62 = llvm.sub %60, %61  : i64
    %63 = llvm.inttoptr %62 : i64 to !llvm.ptr
    %64 = llvm.mlir.undef : !llvm.struct<(ptr, ptr, i64, array<4 x i64>, array<4 x i64>)>
    %65 = llvm.insertvalue %56, %64[0] : !llvm.struct<(ptr, ptr, i64, array<4 x i64>, array<4 x i64>)>
    %66 = llvm.insertvalue %63, %65[1] : !llvm.struct<(ptr, ptr, i64, array<4 x i64>, array<4 x i64>)>
    %67 = llvm.mlir.constant(0 : index) : i64
    %68 = llvm.insertvalue %67, %66[2] : !llvm.struct<(ptr, ptr, i64, array<4 x i64>, array<4 x i64>)>
    %69 = llvm.insertvalue %35, %68[3, 0] : !llvm.struct<(ptr, ptr, i64, array<4 x i64>, array<4 x i64>)>
    %70 = llvm.insertvalue %41, %69[3, 1] : !llvm.struct<(ptr, ptr, i64, array<4 x i64>, array<4 x i64>)>
    %71 = llvm.insertvalue %44, %70[3, 2] : !llvm.struct<(ptr, ptr, i64, array<4 x i64>, array<4 x i64>)>
    %72 = llvm.insertvalue %46, %71[3, 3] : !llvm.struct<(ptr, ptr, i64, array<4 x i64>, array<4 x i64>)>
    %73 = llvm.insertvalue %49, %72[4, 0] : !llvm.struct<(ptr, ptr, i64, array<4 x i64>, array<4 x i64>)>
    %74 = llvm.insertvalue %48, %73[4, 1] : !llvm.struct<(ptr, ptr, i64, array<4 x i64>, array<4 x i64>)>
    %75 = llvm.insertvalue %46, %74[4, 2] : !llvm.struct<(ptr, ptr, i64, array<4 x i64>, array<4 x i64>)>
    %76 = llvm.insertvalue %47, %75[4, 3] : !llvm.struct<(ptr, ptr, i64, array<4 x i64>, array<4 x i64>)>
    cf.br ^bb1(%c0 : index)
  ^bb1(%77: index):  // 2 preds: ^bb0, ^bb8
    %78 = builtin.unrealized_conversion_cast %77 : index to i64
    %79 = arith.cmpi slt, %77, %36 : index
    cf.cond_br %79, ^bb2(%c0 : index), ^bb9
  ^bb2(%80: index):  // 2 preds: ^bb1, ^bb7
    %81 = builtin.unrealized_conversion_cast %80 : index to i64
    %82 = arith.cmpi slt, %80, %42 : index
    cf.cond_br %82, ^bb3(%c0 : index), ^bb8
  ^bb3(%83: index):  // 2 preds: ^bb2, ^bb6
    %84 = builtin.unrealized_conversion_cast %83 : index to i64
    %85 = arith.cmpi slt, %83, %43 : index
    cf.cond_br %85, ^bb4(%c0 : index), ^bb7
  ^bb4(%86: index):  // 2 preds: ^bb3, ^bb5
    %87 = builtin.unrealized_conversion_cast %86 : index to i64
    %88 = arith.cmpi slt, %86, %45 : index
    cf.cond_br %88, ^bb5, ^bb6
  ^bb5:  // pred: ^bb4
    %89 = llvm.mul %78, %49  : i64
    %90 = llvm.mul %81, %48  : i64
    %91 = llvm.add %89, %90  : i64
    %92 = llvm.mul %84, %46  : i64
    %93 = llvm.add %91, %92  : i64
    %94 = llvm.add %93, %87  : i64
    %95 = llvm.getelementptr %63[%94] : (!llvm.ptr, i64) -> !llvm.ptr, f32
    llvm.store %cst, %95 : f32, !llvm.ptr
    %96 = arith.addi %86, %c1 : index
    cf.br ^bb4(%96 : index)
  ^bb6:  // pred: ^bb4
    %97 = arith.addi %83, %c1 : index
    cf.br ^bb3(%97 : index)
  ^bb7:  // pred: ^bb3
    %98 = arith.addi %80, %c1 : index
    cf.br ^bb2(%98 : index)
  ^bb8:  // pred: ^bb2
    %99 = arith.addi %77, %c1 : index
    cf.br ^bb1(%99 : index)
  ^bb9:  // pred: ^bb1
    %100 = llvm.mlir.constant(1 : index) : i64
    %101 = llvm.mul %46, %44  : i64
    %102 = llvm.mul %101, %41  : i64
    %103 = llvm.mul %102, %35  : i64
    %104 = llvm.mlir.null : !llvm.ptr
    %105 = llvm.getelementptr %104[%103] : (!llvm.ptr, i64) -> !llvm.ptr, f32
    %106 = llvm.ptrtoint %105 : !llvm.ptr to i64
    %107 = llvm.mlir.constant(64 : index) : i64
    %108 = llvm.add %106, %107  : i64
    %109 = llvm.call @malloc(%108) : (i64) -> !llvm.ptr
    %110 = llvm.ptrtoint %109 : !llvm.ptr to i64
    %111 = llvm.mlir.constant(1 : index) : i64
    %112 = llvm.sub %107, %111  : i64
    %113 = llvm.add %110, %112  : i64
    %114 = llvm.urem %113, %107  : i64
    %115 = llvm.sub %113, %114  : i64
    %116 = llvm.inttoptr %115 : i64 to !llvm.ptr
    %117 = llvm.mlir.undef : !llvm.struct<(ptr, ptr, i64, array<4 x i64>, array<4 x i64>)>
    %118 = llvm.insertvalue %109, %117[0] : !llvm.struct<(ptr, ptr, i64, array<4 x i64>, array<4 x i64>)>
    %119 = llvm.insertvalue %116, %118[1] : !llvm.struct<(ptr, ptr, i64, array<4 x i64>, array<4 x i64>)>
    %120 = llvm.mlir.constant(0 : index) : i64
    %121 = llvm.insertvalue %120, %119[2] : !llvm.struct<(ptr, ptr, i64, array<4 x i64>, array<4 x i64>)>
    %122 = llvm.insertvalue %35, %121[3, 0] : !llvm.struct<(ptr, ptr, i64, array<4 x i64>, array<4 x i64>)>
    %123 = llvm.insertvalue %41, %122[3, 1] : !llvm.struct<(ptr, ptr, i64, array<4 x i64>, array<4 x i64>)>
    %124 = llvm.insertvalue %44, %123[3, 2] : !llvm.struct<(ptr, ptr, i64, array<4 x i64>, array<4 x i64>)>
    %125 = llvm.insertvalue %46, %124[3, 3] : !llvm.struct<(ptr, ptr, i64, array<4 x i64>, array<4 x i64>)>
    %126 = llvm.insertvalue %102, %125[4, 0] : !llvm.struct<(ptr, ptr, i64, array<4 x i64>, array<4 x i64>)>
    %127 = llvm.insertvalue %101, %126[4, 1] : !llvm.struct<(ptr, ptr, i64, array<4 x i64>, array<4 x i64>)>
    %128 = llvm.insertvalue %46, %127[4, 2] : !llvm.struct<(ptr, ptr, i64, array<4 x i64>, array<4 x i64>)>
    %129 = llvm.insertvalue %100, %128[4, 3] : !llvm.struct<(ptr, ptr, i64, array<4 x i64>, array<4 x i64>)>
    cf.br ^bb10(%c0 : index)
  ^bb10(%130: index):  // 2 preds: ^bb9, ^bb17
    %131 = builtin.unrealized_conversion_cast %130 : index to i64
    %132 = arith.cmpi slt, %130, %36 : index
    cf.cond_br %132, ^bb11(%c0 : index), ^bb18
  ^bb11(%133: index):  // 2 preds: ^bb10, ^bb16
    %134 = builtin.unrealized_conversion_cast %133 : index to i64
    %135 = arith.cmpi slt, %133, %42 : index
    cf.cond_br %135, ^bb12(%c0 : index), ^bb17
  ^bb12(%136: index):  // 2 preds: ^bb11, ^bb15
    %137 = builtin.unrealized_conversion_cast %136 : index to i64
    %138 = arith.cmpi slt, %136, %43 : index
    cf.cond_br %138, ^bb13(%c0 : index), ^bb16
  ^bb13(%139: index):  // 2 preds: ^bb12, ^bb14
    %140 = builtin.unrealized_conversion_cast %139 : index to i64
    %141 = arith.cmpi slt, %139, %45 : index
    cf.cond_br %141, ^bb14, ^bb15
  ^bb14:  // pred: ^bb13
    %142 = llvm.mul %131, %49  : i64
    %143 = llvm.mul %134, %48  : i64
    %144 = llvm.add %142, %143  : i64
    %145 = llvm.mul %137, %46  : i64
    %146 = llvm.add %144, %145  : i64
    %147 = llvm.add %146, %140  : i64
    %148 = llvm.getelementptr %63[%147] : (!llvm.ptr, i64) -> !llvm.ptr, f32
    %149 = llvm.load %148 : !llvm.ptr -> f32
    %150 = llvm.mul %131, %102  : i64
    %151 = llvm.mul %134, %101  : i64
    %152 = llvm.add %150, %151  : i64
    %153 = llvm.mul %137, %46  : i64
    %154 = llvm.add %152, %153  : i64
    %155 = llvm.add %154, %140  : i64
    %156 = llvm.getelementptr %116[%155] : (!llvm.ptr, i64) -> !llvm.ptr, f32
    llvm.store %149, %156 : f32, !llvm.ptr
    %157 = arith.addi %139, %c1 : index
    cf.br ^bb13(%157 : index)
  ^bb15:  // pred: ^bb13
    %158 = arith.addi %136, %c1 : index
    cf.br ^bb12(%158 : index)
  ^bb16:  // pred: ^bb12
    %159 = arith.addi %133, %c1 : index
    cf.br ^bb11(%159 : index)
  ^bb17:  // pred: ^bb11
    %160 = arith.addi %130, %c1 : index
    cf.br ^bb10(%160 : index)
  ^bb18:  // pred: ^bb10
    llvm.call @free(%56) : (!llvm.ptr) -> ()
    %161 = arith.muli %43, %45 : index
    %162 = builtin.unrealized_conversion_cast %161 : index to i64
    %163 = arith.muli %42, %43 : index
    %164 = arith.muli %163, %45 : index
    %165 = builtin.unrealized_conversion_cast %164 : index to i64
    %c3_0 = arith.constant 3 : index
    %166 = arith.muli %45, %c3_0 : index
    %c3_1 = arith.constant 3 : index
    %167 = arith.addi %166, %c3_1 : index
    %168 = builtin.unrealized_conversion_cast %167 : index to i64
    %169 = llvm.mlir.undef : !llvm.struct<(ptr, ptr, i64, array<4 x i64>, array<4 x i64>)>
    %170 = llvm.insertvalue %109, %169[0] : !llvm.struct<(ptr, ptr, i64, array<4 x i64>, array<4 x i64>)>
    %171 = llvm.insertvalue %116, %170[1] : !llvm.struct<(ptr, ptr, i64, array<4 x i64>, array<4 x i64>)>
    %172 = llvm.insertvalue %168, %171[2] : !llvm.struct<(ptr, ptr, i64, array<4 x i64>, array<4 x i64>)>
    %173 = llvm.insertvalue %35, %172[3, 0] : !llvm.struct<(ptr, ptr, i64, array<4 x i64>, array<4 x i64>)>
    %174 = llvm.insertvalue %165, %173[4, 0] : !llvm.struct<(ptr, ptr, i64, array<4 x i64>, array<4 x i64>)>
    %175 = llvm.insertvalue %41, %174[3, 1] : !llvm.struct<(ptr, ptr, i64, array<4 x i64>, array<4 x i64>)>
    %176 = llvm.insertvalue %162, %175[4, 1] : !llvm.struct<(ptr, ptr, i64, array<4 x i64>, array<4 x i64>)>
    %177 = llvm.insertvalue %37, %176[3, 2] : !llvm.struct<(ptr, ptr, i64, array<4 x i64>, array<4 x i64>)>
    %178 = llvm.insertvalue %46, %177[4, 2] : !llvm.struct<(ptr, ptr, i64, array<4 x i64>, array<4 x i64>)>
    %179 = llvm.insertvalue %39, %178[3, 3] : !llvm.struct<(ptr, ptr, i64, array<4 x i64>, array<4 x i64>)>
    %180 = llvm.mlir.constant(1 : index) : i64
    %181 = llvm.insertvalue %180, %179[4, 3] : !llvm.struct<(ptr, ptr, i64, array<4 x i64>, array<4 x i64>)>
    %182 = llvm.extractvalue %6[3, 0] : !llvm.struct<(ptr, ptr, i64, array<4 x i64>, array<4 x i64>)>
    %183 = builtin.unrealized_conversion_cast %182 : i64 to index
    %184 = llvm.extractvalue %6[3, 1] : !llvm.struct<(ptr, ptr, i64, array<4 x i64>, array<4 x i64>)>
    %185 = builtin.unrealized_conversion_cast %184 : i64 to index
    %186 = llvm.extractvalue %6[3, 2] : !llvm.struct<(ptr, ptr, i64, array<4 x i64>, array<4 x i64>)>
    %187 = builtin.unrealized_conversion_cast %186 : i64 to index
    %188 = llvm.extractvalue %6[3, 3] : !llvm.struct<(ptr, ptr, i64, array<4 x i64>, array<4 x i64>)>
    %189 = builtin.unrealized_conversion_cast %188 : i64 to index
    cf.br ^bb19(%c0 : index)
  ^bb19(%190: index):  // 2 preds: ^bb18, ^bb26
    %191 = builtin.unrealized_conversion_cast %190 : index to i64
    %192 = arith.cmpi slt, %190, %183 : index
    cf.cond_br %192, ^bb20(%c0 : index), ^bb27
  ^bb20(%193: index):  // 2 preds: ^bb19, ^bb25
    %194 = builtin.unrealized_conversion_cast %193 : index to i64
    %195 = arith.cmpi slt, %193, %185 : index
    cf.cond_br %195, ^bb21(%c0 : index), ^bb26
  ^bb21(%196: index):  // 2 preds: ^bb20, ^bb24
    %197 = builtin.unrealized_conversion_cast %196 : index to i64
    %198 = arith.cmpi slt, %196, %187 : index
    cf.cond_br %198, ^bb22(%c0 : index), ^bb25
  ^bb22(%199: index):  // 2 preds: ^bb21, ^bb23
    %200 = builtin.unrealized_conversion_cast %199 : index to i64
    %201 = arith.cmpi slt, %199, %189 : index
    cf.cond_br %201, ^bb23, ^bb24
  ^bb23:  // pred: ^bb22
    %202 = llvm.extractvalue %6[1] : !llvm.struct<(ptr, ptr, i64, array<4 x i64>, array<4 x i64>)>
    %203 = llvm.extractvalue %6[4, 0] : !llvm.struct<(ptr, ptr, i64, array<4 x i64>, array<4 x i64>)>
    %204 = llvm.mul %191, %203  : i64
    %205 = llvm.extractvalue %6[4, 1] : !llvm.struct<(ptr, ptr, i64, array<4 x i64>, array<4 x i64>)>
    %206 = llvm.mul %194, %205  : i64
    %207 = llvm.add %204, %206  : i64
    %208 = llvm.extractvalue %6[4, 2] : !llvm.struct<(ptr, ptr, i64, array<4 x i64>, array<4 x i64>)>
    %209 = llvm.mul %197, %208  : i64
    %210 = llvm.add %207, %209  : i64
    %211 = llvm.add %210, %200  : i64
    %212 = llvm.getelementptr %202[%211] : (!llvm.ptr, i64) -> !llvm.ptr, f32
    %213 = llvm.load %212 : !llvm.ptr -> f32
    %214 = llvm.getelementptr %116[%168] : (!llvm.ptr, i64) -> !llvm.ptr, f32
    %215 = llvm.mul %191, %165  : i64
    %216 = llvm.mul %194, %162  : i64
    %217 = llvm.add %215, %216  : i64
    %218 = llvm.mul %197, %46  : i64
    %219 = llvm.add %217, %218  : i64
    %220 = llvm.add %219, %200  : i64
    %221 = llvm.getelementptr %214[%220] : (!llvm.ptr, i64) -> !llvm.ptr, f32
    llvm.store %213, %221 : f32, !llvm.ptr
    %222 = arith.addi %199, %c1 : index
    cf.br ^bb22(%222 : index)
  ^bb24:  // pred: ^bb22
    %223 = arith.addi %196, %c1 : index
    cf.br ^bb21(%223 : index)
  ^bb25:  // pred: ^bb21
    %224 = arith.addi %193, %c1 : index
    cf.br ^bb20(%224 : index)
  ^bb26:  // pred: ^bb20
    %225 = arith.addi %190, %c1 : index
    cf.br ^bb19(%225 : index)
  ^bb27:  // pred: ^bb19
    %226 = arith.index_cast %38 : index to i64
    %227 = arith.subi %226, %c1_i64 : i64
    %228 = arith.subi %c-1_i64, %227 : i64
    %229 = arith.divsi %228, %c2_i64 : i64
    %230 = arith.subi %c-1_i64, %229 : i64
    %231 = arith.divsi %227, %c2_i64 : i64
    %232 = arith.cmpi slt, %227, %c0_i64 : i64
    %233 = arith.select %232, %230, %231 : i64
    %234 = arith.addi %233, %c1_i64 : i64
    %235 = arith.index_cast %234 : i64 to index
    %236 = builtin.unrealized_conversion_cast %235 : index to i64
    %237 = arith.index_cast %40 : index to i64
    %238 = arith.subi %237, %c1_i64 : i64
    %239 = arith.subi %c-1_i64, %238 : i64
    %240 = arith.divsi %239, %c2_i64 : i64
    %241 = arith.subi %c-1_i64, %240 : i64
    %242 = arith.divsi %238, %c2_i64 : i64
    %243 = arith.cmpi slt, %238, %c0_i64 : i64
    %244 = arith.select %243, %241, %242 : i64
    %245 = arith.addi %244, %c1_i64 : i64
    %246 = arith.index_cast %245 : i64 to index
    %247 = builtin.unrealized_conversion_cast %246 : index to i64
    %248 = llvm.mlir.constant(10 : index) : i64
    %249 = llvm.mlir.constant(1 : index) : i64
    %250 = llvm.mul %247, %236  : i64
    %251 = llvm.mul %250, %248  : i64
    %252 = llvm.mul %251, %35  : i64
    %253 = llvm.mlir.null : !llvm.ptr
    %254 = llvm.getelementptr %253[%252] : (!llvm.ptr, i64) -> !llvm.ptr, f32
    %255 = llvm.ptrtoint %254 : !llvm.ptr to i64
    %256 = llvm.mlir.constant(64 : index) : i64
    %257 = llvm.add %255, %256  : i64
    %258 = llvm.call @malloc(%257) : (i64) -> !llvm.ptr
    %259 = llvm.ptrtoint %258 : !llvm.ptr to i64
    %260 = llvm.mlir.constant(1 : index) : i64
    %261 = llvm.sub %256, %260  : i64
    %262 = llvm.add %259, %261  : i64
    %263 = llvm.urem %262, %256  : i64
    %264 = llvm.sub %262, %263  : i64
    %265 = llvm.inttoptr %264 : i64 to !llvm.ptr
    %266 = llvm.mlir.undef : !llvm.struct<(ptr, ptr, i64, array<4 x i64>, array<4 x i64>)>
    %267 = llvm.insertvalue %258, %266[0] : !llvm.struct<(ptr, ptr, i64, array<4 x i64>, array<4 x i64>)>
    %268 = llvm.insertvalue %265, %267[1] : !llvm.struct<(ptr, ptr, i64, array<4 x i64>, array<4 x i64>)>
    %269 = llvm.mlir.constant(0 : index) : i64
    %270 = llvm.insertvalue %269, %268[2] : !llvm.struct<(ptr, ptr, i64, array<4 x i64>, array<4 x i64>)>
    %271 = llvm.insertvalue %35, %270[3, 0] : !llvm.struct<(ptr, ptr, i64, array<4 x i64>, array<4 x i64>)>
    %272 = llvm.insertvalue %248, %271[3, 1] : !llvm.struct<(ptr, ptr, i64, array<4 x i64>, array<4 x i64>)>
    %273 = llvm.insertvalue %236, %272[3, 2] : !llvm.struct<(ptr, ptr, i64, array<4 x i64>, array<4 x i64>)>
    %274 = llvm.insertvalue %247, %273[3, 3] : !llvm.struct<(ptr, ptr, i64, array<4 x i64>, array<4 x i64>)>
    %275 = llvm.insertvalue %251, %274[4, 0] : !llvm.struct<(ptr, ptr, i64, array<4 x i64>, array<4 x i64>)>
    %276 = llvm.insertvalue %250, %275[4, 1] : !llvm.struct<(ptr, ptr, i64, array<4 x i64>, array<4 x i64>)>
    %277 = llvm.insertvalue %247, %276[4, 2] : !llvm.struct<(ptr, ptr, i64, array<4 x i64>, array<4 x i64>)>
    %278 = llvm.insertvalue %249, %277[4, 3] : !llvm.struct<(ptr, ptr, i64, array<4 x i64>, array<4 x i64>)>
    cf.br ^bb28(%c0 : index)
  ^bb28(%279: index):  // 2 preds: ^bb27, ^bb35
    %280 = builtin.unrealized_conversion_cast %279 : index to i64
    %281 = arith.cmpi slt, %279, %36 : index
    cf.cond_br %281, ^bb29(%c0 : index), ^bb36
  ^bb29(%282: index):  // 2 preds: ^bb28, ^bb34
    %283 = builtin.unrealized_conversion_cast %282 : index to i64
    %284 = arith.cmpi slt, %282, %c10 : index
    cf.cond_br %284, ^bb30(%c0 : index), ^bb35
  ^bb30(%285: index):  // 2 preds: ^bb29, ^bb33
    %286 = builtin.unrealized_conversion_cast %285 : index to i64
    %287 = arith.cmpi slt, %285, %235 : index
    cf.cond_br %287, ^bb31(%c0 : index), ^bb34
  ^bb31(%288: index):  // 2 preds: ^bb30, ^bb32
    %289 = builtin.unrealized_conversion_cast %288 : index to i64
    %290 = arith.cmpi slt, %288, %246 : index
    cf.cond_br %290, ^bb32, ^bb33
  ^bb32:  // pred: ^bb31
    %291 = llvm.mul %280, %251  : i64
    %292 = llvm.mul %283, %250  : i64
    %293 = llvm.add %291, %292  : i64
    %294 = llvm.mul %286, %247  : i64
    %295 = llvm.add %293, %294  : i64
    %296 = llvm.add %295, %289  : i64
    %297 = llvm.getelementptr %265[%296] : (!llvm.ptr, i64) -> !llvm.ptr, f32
    llvm.store %cst, %297 : f32, !llvm.ptr
    %298 = arith.addi %288, %c1 : index
    cf.br ^bb31(%298 : index)
  ^bb33:  // pred: ^bb31
    %299 = arith.addi %285, %c1 : index
    cf.br ^bb30(%299 : index)
  ^bb34:  // pred: ^bb30
    %300 = arith.addi %282, %c1 : index
    cf.br ^bb29(%300 : index)
  ^bb35:  // pred: ^bb29
    %301 = arith.addi %279, %c1 : index
    cf.br ^bb28(%301 : index)
  ^bb36:  // pred: ^bb28
    %302 = llvm.mlir.constant(10 : index) : i64
    %303 = llvm.mlir.constant(1 : index) : i64
    %304 = llvm.mul %247, %236  : i64
    %305 = llvm.mul %304, %302  : i64
    %306 = llvm.mul %305, %35  : i64
    %307 = llvm.mlir.null : !llvm.ptr
    %308 = llvm.getelementptr %307[%306] : (!llvm.ptr, i64) -> !llvm.ptr, f32
    %309 = llvm.ptrtoint %308 : !llvm.ptr to i64
    %310 = llvm.mlir.constant(64 : index) : i64
    %311 = llvm.add %309, %310  : i64
    %312 = llvm.call @malloc(%311) : (i64) -> !llvm.ptr
    %313 = llvm.ptrtoint %312 : !llvm.ptr to i64
    %314 = llvm.mlir.constant(1 : index) : i64
    %315 = llvm.sub %310, %314  : i64
    %316 = llvm.add %313, %315  : i64
    %317 = llvm.urem %316, %310  : i64
    %318 = llvm.sub %316, %317  : i64
    %319 = llvm.inttoptr %318 : i64 to !llvm.ptr
    %320 = llvm.mlir.undef : !llvm.struct<(ptr, ptr, i64, array<4 x i64>, array<4 x i64>)>
    %321 = llvm.insertvalue %312, %320[0] : !llvm.struct<(ptr, ptr, i64, array<4 x i64>, array<4 x i64>)>
    %322 = llvm.insertvalue %319, %321[1] : !llvm.struct<(ptr, ptr, i64, array<4 x i64>, array<4 x i64>)>
    %323 = llvm.mlir.constant(0 : index) : i64
    %324 = llvm.insertvalue %323, %322[2] : !llvm.struct<(ptr, ptr, i64, array<4 x i64>, array<4 x i64>)>
    %325 = llvm.insertvalue %35, %324[3, 0] : !llvm.struct<(ptr, ptr, i64, array<4 x i64>, array<4 x i64>)>
    %326 = llvm.insertvalue %302, %325[3, 1] : !llvm.struct<(ptr, ptr, i64, array<4 x i64>, array<4 x i64>)>
    %327 = llvm.insertvalue %236, %326[3, 2] : !llvm.struct<(ptr, ptr, i64, array<4 x i64>, array<4 x i64>)>
    %328 = llvm.insertvalue %247, %327[3, 3] : !llvm.struct<(ptr, ptr, i64, array<4 x i64>, array<4 x i64>)>
    %329 = llvm.insertvalue %305, %328[4, 0] : !llvm.struct<(ptr, ptr, i64, array<4 x i64>, array<4 x i64>)>
    %330 = llvm.insertvalue %304, %329[4, 1] : !llvm.struct<(ptr, ptr, i64, array<4 x i64>, array<4 x i64>)>
    %331 = llvm.insertvalue %247, %330[4, 2] : !llvm.struct<(ptr, ptr, i64, array<4 x i64>, array<4 x i64>)>
    %332 = llvm.insertvalue %303, %331[4, 3] : !llvm.struct<(ptr, ptr, i64, array<4 x i64>, array<4 x i64>)>
    cf.br ^bb37(%c0 : index)
  ^bb37(%333: index):  // 2 preds: ^bb36, ^bb44
    %334 = builtin.unrealized_conversion_cast %333 : index to i64
    %335 = arith.cmpi slt, %333, %36 : index
    cf.cond_br %335, ^bb38(%c0 : index), ^bb45
  ^bb38(%336: index):  // 2 preds: ^bb37, ^bb43
    %337 = builtin.unrealized_conversion_cast %336 : index to i64
    %338 = arith.cmpi slt, %336, %c10 : index
    cf.cond_br %338, ^bb39(%c0 : index), ^bb44
  ^bb39(%339: index):  // 2 preds: ^bb38, ^bb42
    %340 = builtin.unrealized_conversion_cast %339 : index to i64
    %341 = arith.cmpi slt, %339, %235 : index
    cf.cond_br %341, ^bb40(%c0 : index), ^bb43
  ^bb40(%342: index):  // 2 preds: ^bb39, ^bb41
    %343 = builtin.unrealized_conversion_cast %342 : index to i64
    %344 = arith.cmpi slt, %342, %246 : index
    cf.cond_br %344, ^bb41, ^bb42
  ^bb41:  // pred: ^bb40
    %345 = llvm.mul %334, %251  : i64
    %346 = llvm.mul %337, %250  : i64
    %347 = llvm.add %345, %346  : i64
    %348 = llvm.mul %340, %247  : i64
    %349 = llvm.add %347, %348  : i64
    %350 = llvm.add %349, %343  : i64
    %351 = llvm.getelementptr %265[%350] : (!llvm.ptr, i64) -> !llvm.ptr, f32
    %352 = llvm.load %351 : !llvm.ptr -> f32
    %353 = llvm.mul %334, %305  : i64
    %354 = llvm.mul %337, %304  : i64
    %355 = llvm.add %353, %354  : i64
    %356 = llvm.mul %340, %247  : i64
    %357 = llvm.add %355, %356  : i64
    %358 = llvm.add %357, %343  : i64
    %359 = llvm.getelementptr %319[%358] : (!llvm.ptr, i64) -> !llvm.ptr, f32
    llvm.store %352, %359 : f32, !llvm.ptr
    %360 = arith.addi %342, %c1 : index
    cf.br ^bb40(%360 : index)
  ^bb42:  // pred: ^bb40
    %361 = arith.addi %339, %c1 : index
    cf.br ^bb39(%361 : index)
  ^bb43:  // pred: ^bb39
    %362 = arith.addi %336, %c1 : index
    cf.br ^bb38(%362 : index)
  ^bb44:  // pred: ^bb38
    %363 = arith.addi %333, %c1 : index
    cf.br ^bb37(%363 : index)
  ^bb45:  // pred: ^bb37
    llvm.call @free(%258) : (!llvm.ptr) -> ()
    cf.br ^bb46(%c0 : index)
  ^bb46(%364: index):  // 2 preds: ^bb45, ^bb59
    %365 = builtin.unrealized_conversion_cast %364 : index to i64
    %366 = arith.cmpi slt, %364, %36 : index
    cf.cond_br %366, ^bb47(%c0 : index), ^bb60
  ^bb47(%367: index):  // 2 preds: ^bb46, ^bb58
    %368 = builtin.unrealized_conversion_cast %367 : index to i64
    %369 = arith.cmpi slt, %367, %c10 : index
    cf.cond_br %369, ^bb48(%c0 : index), ^bb59
  ^bb48(%370: index):  // 2 preds: ^bb47, ^bb57
    %371 = builtin.unrealized_conversion_cast %370 : index to i64
    %372 = arith.cmpi slt, %370, %235 : index
    cf.cond_br %372, ^bb49(%c0 : index), ^bb58
  ^bb49(%373: index):  // 2 preds: ^bb48, ^bb56
    %374 = builtin.unrealized_conversion_cast %373 : index to i64
    %375 = arith.cmpi slt, %373, %246 : index
    cf.cond_br %375, ^bb50(%c0 : index), ^bb57
  ^bb50(%376: index):  // 2 preds: ^bb49, ^bb55
    %377 = builtin.unrealized_conversion_cast %376 : index to i64
    %378 = arith.cmpi slt, %376, %42 : index
    cf.cond_br %378, ^bb51(%c0 : index), ^bb56
  ^bb51(%379: index):  // 2 preds: ^bb50, ^bb54
    %380 = builtin.unrealized_conversion_cast %379 : index to i64
    %381 = arith.cmpi slt, %379, %c3 : index
    cf.cond_br %381, ^bb52(%c0 : index), ^bb55
  ^bb52(%382: index):  // 2 preds: ^bb51, ^bb53
    %383 = builtin.unrealized_conversion_cast %382 : index to i64
    %384 = arith.cmpi slt, %382, %c3 : index
    cf.cond_br %384, ^bb53, ^bb54
  ^bb53:  // pred: ^bb52
    %385 = arith.muli %370, %c2 : index
    %386 = arith.muli %379, %c3 : index
    %387 = arith.addi %385, %386 : index
    %388 = builtin.unrealized_conversion_cast %387 : index to i64
    %389 = arith.muli %373, %c2 : index
    %390 = arith.muli %382, %c3 : index
    %391 = arith.addi %389, %390 : index
    %392 = builtin.unrealized_conversion_cast %391 : index to i64
    %393 = llvm.mul %365, %102  : i64
    %394 = llvm.mul %377, %101  : i64
    %395 = llvm.add %393, %394  : i64
    %396 = llvm.mul %388, %46  : i64
    %397 = llvm.add %395, %396  : i64
    %398 = llvm.add %397, %392  : i64
    %399 = llvm.getelementptr %116[%398] : (!llvm.ptr, i64) -> !llvm.ptr, f32
    %400 = llvm.load %399 : !llvm.ptr -> f32
    %401 = llvm.mlir.constant(18 : index) : i64
    %402 = llvm.mul %368, %401  : i64
    %403 = llvm.mlir.constant(9 : index) : i64
    %404 = llvm.mul %377, %403  : i64
    %405 = llvm.add %402, %404  : i64
    %406 = llvm.mlir.constant(3 : index) : i64
    %407 = llvm.mul %380, %406  : i64
    %408 = llvm.add %405, %407  : i64
    %409 = llvm.add %408, %383  : i64
    %410 = llvm.getelementptr %19[%409] : (!llvm.ptr, i64) -> !llvm.ptr, f32
    %411 = llvm.load %410 : !llvm.ptr -> f32
    %412 = llvm.mul %365, %305  : i64
    %413 = llvm.mul %368, %304  : i64
    %414 = llvm.add %412, %413  : i64
    %415 = llvm.mul %371, %247  : i64
    %416 = llvm.add %414, %415  : i64
    %417 = llvm.add %416, %374  : i64
    %418 = llvm.getelementptr %319[%417] : (!llvm.ptr, i64) -> !llvm.ptr, f32
    %419 = llvm.load %418 : !llvm.ptr -> f32
    %420 = arith.mulf %400, %411 : f32
    %421 = arith.addf %419, %420 : f32
    %422 = llvm.mul %365, %305  : i64
    %423 = llvm.mul %368, %304  : i64
    %424 = llvm.add %422, %423  : i64
    %425 = llvm.mul %371, %247  : i64
    %426 = llvm.add %424, %425  : i64
    %427 = llvm.add %426, %374  : i64
    %428 = llvm.getelementptr %319[%427] : (!llvm.ptr, i64) -> !llvm.ptr, f32
    llvm.store %421, %428 : f32, !llvm.ptr
    %429 = arith.addi %382, %c1 : index
    cf.br ^bb52(%429 : index)
  ^bb54:  // pred: ^bb52
    %430 = arith.addi %379, %c1 : index
    cf.br ^bb51(%430 : index)
  ^bb55:  // pred: ^bb51
    %431 = arith.addi %376, %c1 : index
    cf.br ^bb50(%431 : index)
  ^bb56:  // pred: ^bb50
    %432 = arith.addi %373, %c1 : index
    cf.br ^bb49(%432 : index)
  ^bb57:  // pred: ^bb49
    %433 = arith.addi %370, %c1 : index
    cf.br ^bb48(%433 : index)
  ^bb58:  // pred: ^bb48
    %434 = arith.addi %367, %c1 : index
    cf.br ^bb47(%434 : index)
  ^bb59:  // pred: ^bb47
    %435 = arith.addi %364, %c1 : index
    cf.br ^bb46(%435 : index)
  ^bb60:  // pred: ^bb46
    llvm.call @free(%109) : (!llvm.ptr) -> ()
    %436 = llvm.mlir.constant(1 : index) : i64
    %437 = llvm.alloca %436 x !llvm.struct<(ptr, ptr, i64, array<4 x i64>, array<4 x i64>)> : (i64) -> !llvm.ptr
    llvm.store %332, %437 : !llvm.struct<(ptr, ptr, i64, array<4 x i64>, array<4 x i64>)>, !llvm.ptr
    %438 = llvm.mlir.constant(4 : index) : i64
    %439 = llvm.mlir.undef : !llvm.struct<(i64, ptr)>
    %440 = llvm.insertvalue %438, %439[0] : !llvm.struct<(i64, ptr)>
    %441 = llvm.insertvalue %437, %440[1] : !llvm.struct<(i64, ptr)>
    %442 = builtin.unrealized_conversion_cast %441 : !llvm.struct<(i64, ptr)> to memref<*xf32>
    call @refbackend_consume_func_return_mrf32(%442) : (memref<*xf32>) -> ()
    return
  }
}
